. 18520
t 10325
s 10010
d 6843
i 6128
y 6108
the 5219
to 4531
you 4268
m 4246
e 4127
'@@ 3588
a 3509
? 3142
is 3065
ve 2623
to@@ 2600
he 2364
me 2328
i@@ 2293
ha@@ 2273
n'@@ 2272
ing 2270
do 2041
g 2028
at 1997
in 1904
w 1793
wa@@ 1710
ll 1617
k 1513
of 1496
ld 1420
hi@@ 1407
my 1372
th@@ 1354
she 1316
ar@@ 1255
st 1225
thi@@ 1221
t@@ 1215
, 1196
e@@ 1192
w@@ 1140
no@@ 1133
y@@ 1120
for 1107
on 1106
se 1067
l@@ 1040
we 1035
en@@ 993
be@@ 972
thin@@ 964
te@@ 936
di@@ 924
wha@@ 884
es 857
your 855
ma@@ 827
li@@ 818
on@@ 814
ther 800
da@@ 792
ti@@ 773
l 772
out 727
be 720
like 716
p 692
ce 685
le@@ 679
wi@@ 678
go@@ 671
le 668
en 667
with 664
the@@ 659
co@@ 653
ke 647
wan@@ 647
ho@@ 638
go 627
re 622
ca@@ 621
ther@@ 619
a@@ 617
d@@ 615
can 610
kno@@ 608
sa@@ 608
ou@@ 602
do@@ 599
ch 595
er 579
te 562
rea@@ 560
ge@@ 560
her 559
lo@@ 548
ne@@ 537
ke@@ 526
ab@@ 514
f 513
bo@@ 508
sh 507
and 505
o@@ 498
ver@@ 497
la@@ 491
se@@ 483
all 481
al@@ 481
er@@ 476
ght 472
n 465
kin@@ 462
ta@@ 461
mar@@ 456
ri@@ 450
her@@ 431
r@@ 427
as 427
fa@@ 421
plea@@ 421
an 421
ea@@ 417
c@@ 415
mu@@ 395
g@@ 393
up 385
de 385
ge 373
ss 364
mo@@ 364
ever@@ 364
ve@@ 361
shou@@ 359
mor@@ 357
p@@ 355
th 355
n@@ 354
m@@ 353
by 353
tion 350
tter 348
good 347
in@@ 346
fro@@ 344
no 343
re@@ 343
ty 342
ca 340
ll@@ 333
de@@ 329
k@@ 327
me@@ 327
tt@@ 327
bu@@ 324
cou@@ 319
mon@@ 317
wor@@ 313
some@@ 313
sto@@ 307
wher@@ 306
loo@@ 304
oo@@ 304
si@@ 299
b@@ 298
fu@@ 296
u@@ 294
when 286
sta@@ 283
work 283
hel@@ 282
ck 281
s@@ 279
lon@@ 279
ver 277
ju@@ 272
an@@ 271
pla@@ 269
eng@@ 263
book 262
fi@@ 260
sch@@ 259
as@@ 251
nee@@ 244
wo 243
ga@@ 240
see 239
man@@ 238
din@@ 235
am 233
man 232
who 231
than 231
some 230
home 228
oun@@ 228
par@@ 228
spea@@ 226
row 226
any 225
car 223
tu@@ 222
any@@ 221
so 219
su@@ 219
happ@@ 218
roo@@ 218
v@@ 215
or 214
gi@@ 209
night 209
ear@@ 209
ple 208
wh@@ 206
ten 202
ey 200
mi@@ 200
stud@@ 200
sel@@ 200
ter 199
ro@@ 198
too 197
tomor@@ 193
but 187
! 186
tal@@ 186
our 184
c 182
yester@@ 178
tr@@ 177
bro@@ 177
f@@ 176
sho@@ 175
bi@@ 175
peo@@ 175
pu@@ 172
house 170
bac@@ 168
lea@@ 165
ous 163
wai@@ 162
sti@@ 160
stan@@ 160
tru@@ 160
min@@ 160
ni@@ 159
z@@ 158
pre@@ 156
tur@@ 155
al 154
thre@@ 154
sin@@ 153
jo@@ 151
use 151
tra@@ 151
na@@ 150
ne 150
yo@@ 148
nex@@ 147
fin@@ 146
pa@@ 145
sy 145
ac@@ 143
sen@@ 142
for@@ 141
b 139
wal@@ 139
har@@ 138
she@@ 138
child@@ 135
after 135
ren 134
aga@@ 133
fe 132
dri@@ 131
well 131
year@@ 131
ba@@ 131
gh 130
swi@@ 128
' 128
pic@@ 127
wri@@ 126
all@@ 125
ten@@ 124
ir 123
ci@@ 123
fore 123
down 121
under@@ 121
over 120
el@@ 120
brea@@ 120
`@@ 120
` 120
use@@ 120
r 119
ear 119
af@@ 119
kee@@ 116
see@@ 116
den@@ 115
ger 115
off 114
win@@ 114
mber 114
teach@@ 113
mee@@ 113
men@@ 113
chan@@ 113
proble@@ 112
o 111
ce@@ 111
hear@@ 110
fr@@ 110
soon 108
foo@@ 108
fe@@ 108
of@@ 108
too@@ 108
ever 108
po@@ 107
friend@@ 107
clo@@ 107
coun@@ 105
door 104
tri@@ 103
un@@ 103
son 102
ph@@ 100
fini@@ 100
star@@ 99
rai@@ 99
ld@@ 99
sh@@ 98
like@@ 98
ble 98
belie@@ 98
friend 98
fir@@ 98
gu@@ 97
war@@ 97
rin@@ 96
water 96
che@@ 95
your@@ 95
bed 95
whi@@ 95
qui@@ 94
op@@ 94
lef@@ 94
com@@ 94
visi@@ 94
sist@@ 94
plan@@ 94
year 92
drin@@ 92
0 91
questi@@ 91
fast 90
thou@@ 90
ra@@ 89
car@@ 88
ner 88
ki@@ 87
them 87
arri@@ 87
feel 86
st@@ 86
gla@@ 86
japan 86
cu@@ 85
pp@@ 85
dre@@ 85
tab@@ 85
unda@@ 85
ene@@ 84
youn@@ 83
don@@ 83
ron@@ 83
dea@@ 83
week 83
cke@@ 82
ven 82
book@@ 81
sor@@ 80
pe@@ 80
con@@ 80
beauti@@ 79
les 79
docto@@ 78
plan 78
stor@@ 78
hou@@ 78
or@@ 78
pri@@ 77
est 77
than@@ 76
reme@@ 76
which 76
hur@@ 75
answ@@ 75
slee@@ 74
big 74
interest@@ 74
plac@@ 74
appl@@ 73
hear 73
difficu@@ 73
list@@ 72
fel@@ 72
ru@@ 72
x 71
rain 71
mista@@ 71
ck@@ 71
tal 71
bor@@ 70
watch 70
ligh@@ 70
ste@@ 69
lear@@ 69
ad 69
ven@@ 68
lar@@ 68
home@@ 68
gra@@ 67
lun@@ 67
deci@@ 67
bir@@ 66
wo@@ 66
hand@@ 66
ap@@ 66
pe 65
ess 65
0@@ 65
minu@@ 65
low 64
flow@@ 64
ffe@@ 64
with@@ 64
hope 63
der 63
ine 63
coo@@ 62
care@@ 62
wea@@ 62
ad@@ 62
son@@ 62
musi@@ 61
spi@@ 61
fami@@ 61
child 61
ken 61
wed 60
care 60
stu@@ 60
ameri@@ 60
ss@@ 60
person 60
ban@@ 60
tain 60
sk 60
cy@@ 60
agre@@ 59
sno@@ 59
sk@@ 59
japan@@ 59
we@@ 58
grea@@ 58
vi@@ 58
rain@@ 58
movi@@ 58
im@@ 58
sp@@ 58
supp@@ 58
langu@@ 58
usu@@ 57
offi@@ 57
smo@@ 56
v 55
lan@@ 55
watch@@ 55
tho@@ 55
fire 54
h@@ 54
ang@@ 54
dar@@ 54
idea 54
acci@@ 54
tre@@ 54
tele@@ 54
cal@@ 53
bui@@ 53
can@@ 53
tion@@ 53
possi@@ 53
enjo@@ 53
girl 53
att@@ 52
lin@@ 52
gar@@ 52
don 52
unc@@ 52
who@@ 51
ex@@ 51
o'@@ 51
hu@@ 50
advi@@ 50
lar 50
va@@ 50
far 49
free 49
shor@@ 49
clea@@ 49
police 49
res 49
ugh@@ 49
sha@@ 48
mer 48
high 48
base@@ 48
spen@@ 48
fol@@ 47
cl@@ 47
dis@@ 47
six 47
so@@ 47
cer 47
camer@@ 47
ing@@ 47
spo@@ 47
windo@@ 47
doll@@ 47
-@@ 47
tch 46
feel@@ 46
ine@@ 46
pian@@ 46
bab@@ 46
unti@@ 46
ow@@ 45
ir@@ 45
ger@@ 45
import@@ 45
heal@@ 45
den 45
ey@@ 44
sea@@ 44
radi@@ 44
nu@@ 44
j@@ 44
differ@@ 44
shi@@ 44
fun 43
thir@@ 43
pas@@ 43
bla@@ 43
after@@ 43
forge@@ 43
my@@ 43
sma@@ 43
daugh@@ 43
diction@@ 43
stre@@ 43
lu@@ 42
tea 42
busin@@ 42
kne@@ 42
cti@@ 42
hea@@ 42
fer 42
chin@@ 42
under 42
class 42
run@@ 41
men 41
hair 41
colle@@ 41
work@@ 41
wro@@ 40
acce@@ 40
pl@@ 40
ter@@ 40
moun@@ 40
opini@@ 39
mea@@ 39
grand@@ 39
sig@@ 38
bar@@ 38
3@@ 38
rest 38
pen 38
hand 38
dang@@ 38
int 38
au@@ 38
cen@@ 37
vo@@ 37
du@@ 37
pro@@ 37
toge@@ 37
ran 36
lie@@ 36
ran@@ 36
expe@@ 36
vor@@ 36
hote@@ 36
stron@@ 35
cra@@ 35
beg@@ 35
oub@@ 35
compu@@ 35
week@@ 35
mean@@ 35
bri@@ 35
air@@ 35
thr@@ 35
promi@@ 34
quie@@ 34
secre@@ 34
gui@@ 34
sal@@ 34
el 34
tok@@ 34
yo 34
cover@@ 34
ite 34
fl@@ 33
begin 33
close 33
app@@ 33
easi@@ 33
hor@@ 33
tter@@ 33
ser@@ 33
ele@@ 33
cy 33
succe@@ 33
run 32
smi@@ 32
pi@@ 32
drea@@ 32
surpri@@ 32
non@@ 32
cor@@ 32
concer@@ 32
stra@@ 32
laugh@@ 31
lie 31
cri@@ 31
woo@@ 31
seri@@ 31
at@@ 31
admi@@ 31
mis@@ 31
cal 31
tax@@ 31
sol@@ 31
ssion 31
libr@@ 31
stran@@ 30
pass 30
spor@@ 30
gre@@ 30
girl@@ 30
wonder 30
shu@@ 29
pati@@ 29
succee@@ 29
fai@@ 29
foreig@@ 29
penci@@ 29
ur@@ 29
soc@@ 29
der@@ 29
wei@@ 29
por@@ 29
sever@@ 29
cer@@ 29
comp@@ 29
whe@@ 29
wonder@@ 28
flo@@ 28
eg@@ 28
head 28
oran@@ 28
eigh@@ 28
ner@@ 28
exa@@ 28
invi@@ 28
ok 27
bea@@ 27
bur@@ 27
refu@@ 27
stupi@@ 27
lou@@ 27
travel 27
discu@@ 27
depen@@ 27
ali@@ 27
out@@ 27
tea@@ 27
dur@@ 27
rela@@ 26
clu@@ 26
rich 26
popu@@ 26
anima@@ 26
cro@@ 26
nov@@ 26
probab@@ 26
expla@@ 26
fron@@ 26
drun@@ 25
blu@@ 25
quick@@ 25
ch@@ 25
dan@@ 25
10@@ 25
umbre@@ 25
four 25
pie@@ 25
hal@@ 25
newsp@@ 25
:@@ 24
1@@ 24
bra@@ 24
ul@@ 24
hung@@ 24
chri@@ 24
seven 24
expen@@ 24
5 24
lla 24
pea@@ 24
cli@@ 24
excep@@ 24
accu@@ 24
mean 23
x@@ 23
pur@@ 23
recen@@ 23
pr@@ 23
part@@ 23
repor@@ 23
air 23
dro@@ 23
spee@@ 23
dee@@ 23
bl@@ 23
shel@@ 23
noi@@ 23
medic@@ 23
tain@@ 23
part 23
excu@@ 22
win 22
sou@@ 22
fru@@ 22
pres@@ 22
war 22
arti@@ 22
chi@@ 22
ster 22
belon@@ 22
br@@ 22
col@@ 22
senten@@ 22
publi@@ 22
over@@ 21
up@@ 21
speci@@ 21
beha@@ 21
tar 21
marke@@ 21
inter@@ 21
chur@@ 21
ei@@ 21
close@@ 21
begin@@ 21
exac@@ 21
fran@@ 21
nine 21
exper@@ 21
thous@@ 21
informa@@ 21
uni@@ 21
won 20
mb@@ 20
ar 20
ama@@ 20
tou@@ 20
fo@@ 20
law 20
cho@@ 20
pain@@ 20
bath 20
stri@@ 20
face@@ 20
list 20
necess@@ 20
,@@ 20
repa@@ 20
pizz@@ 20
yor@@ 20
flu@@ 20
ren@@ 20
transla@@ 20
tor 20
stea@@ 20
han@@ 19
slow@@ 19
twi@@ 19
gradu@@ 19
stam@@ 19
che 19
chair 19
doub@@ 19
class@@ 19
5@@ 19
comple@@ 19
ght@@ 19
ton 19
shir@@ 19
inten@@ 19
ker 19
nea@@ 19
satis@@ 19
grow 19
sw@@ 19
whate@@ 19
eye 19
prepar@@ 19
poli@@ 19
universi@@ 19
deli@@ 18
pen@@ 18
mer@@ 18
ste 18
vege@@ 18
sal 18
chea@@ 18
practi@@ 18
tem@@ 18
cto@@ 18
ag@@ 18
compla@@ 18
tch@@ 18
eu@@ 18
fer@@ 18
tor@@ 18
traf@@ 18
cla@@ 17
dra@@ 17
sci@@ 17
suit@@ 17
cap@@ 17
ous@@ 17
cur@@ 17
cha@@ 17
da 17
propo@@ 17
secon@@ 17
sil@@ 17
memor@@ 17
apologi@@ 17
fre@@ 17
kkai@@ 17
neighbor@@ 17
far@@ 17
furni@@ 17
skir@@ 17
fif@@ 17
restaur@@ 17
capi@@ 17
ski@@ 16
sle@@ 16
exi@@ 16
sme@@ 16
obe@@ 16
ob@@ 16
bloo@@ 16
ef 16
ty@@ 16
free@@ 16
fla@@ 16
continu@@ 16
kid@@ 16
medi@@ 16
clou@@ 16
ol@@ 16
mail 16
kni@@ 16
face 16
poe@@ 16
satur@@ 16
lad@@ 16
indi@@ 16
tar@@ 16
vie@@ 16
magaz@@ 16
imag@@ 16
swee@@ 15
safe 15
fire@@ 15
.@@ 15
electri@@ 15
6@@ 15
gener@@ 15
honest 15
per@@ 15
bed@@ 15
hope@@ 15
absolu@@ 15
sugg@@ 15
teen 15
introdu@@ 15
police@@ 15
enter 15
responsi@@ 15
enti@@ 15
est@@ 15
sun 15
licen@@ 15
terri@@ 14
abo@@ 14
green 14
jea@@ 14
argu@@ 14
mou@@ 14
nor@@ 14
comfor@@ 14
2@@ 14
ber@@ 14
hob@@ 14
laugh 14
mathema@@ 14
serva@@ 14
gen@@ 14
reti@@ 14
sli@@ 14
3 14
int@@ 14
presi@@ 14
crea@@ 14
earthqua@@ 14
hund@@ 14
mon 14
ina@@ 14
4@@ 14
posi@@ 14
char@@ 14
examin@@ 14
crow@@ 14
post 14
perfe@@ 13
wel@@ 13
shoo@@ 13
divor@@ 13
hun@@ 13
gree@@ 13
law@@ 13
esca@@ 13
noti@@ 13
sim@@ 13
pain 13
8@@ 13
ev@@ 13
earth 13
suit 13
smar@@ 13
san@@ 13
fri@@ 13
ea 13
elec@@ 13
mp@@ 13
perha@@ 13
down@@ 13
progre@@ 13
contro@@ 13
priva@@ 13
recei@@ 13
trea@@ 13
trav@@ 13
10 13
super@@ 13
sudden@@ 13
atta@@ 13
milli@@ 13
per 13
ill 12
mor 12
aw@@ 12
sty 12
reali@@ 12
ble@@ 12
inno@@ 12
appro@@ 12
respe@@ 12
impro@@ 12
cel@@ 12
arre@@ 12
soci@@ 12
un 12
travel@@ 12
sun@@ 12
door@@ 12
paint 12
19@@ 12
chee@@ 12
regu@@ 12
climb 12
fashi@@ 12
ster@@ 12
mber@@ 12
pera@@ 12
vide@@ 12
jac@@ 12
excel@@ 12
bas@@ 12
econo@@ 12
tai@@ 12
sligh@@ 12
house@@ 12
bru@@ 12
blo@@ 12
regi@@ 12
exer@@ 12
subje@@ 12
compar@@ 12
consider@@ 12
exci@@ 11
mb 11
pota@@ 11
je@@ 11
shi 11
str@@ 11
choco@@ 11
rar@@ 11
mp 11
regre@@ 11
consider 11
soldi@@ 11
disa@@ 11
permi@@ 11
commi@@ 11
idea@@ 11
20@@ 11
water@@ 11
grow@@ 11
dela@@ 11
mur@@ 11
zer@@ 11
corre@@ 11
resul@@ 11
obje@@ 11
chair@@ 11
edu@@ 11
ber 11
ai@@ 11
qu@@ 11
conversa@@ 11
ari@@ 11
cot@@ 11
teach 11
qua@@ 11
valu@@ 11
machin@@ 11
villa@@ 11
scienti@@ 11
photo@@ 11
opportuni@@ 11
asi@@ 10
ani@@ 10
strai@@ 10
survi@@ 10
cooki@@ 10
t-@@ 10
stoma@@ 10
hon@@ 10
stru@@ 10
high@@ 10
8 10
7@@ 10
denti@@ 10
syste@@ 10
affe@@ 10
knowle@@ 10
and@@ 10
assist@@ 10
enter@@ 10
but@@ 10
moon 10
val 10
our@@ 10
ext@@ 10
cre@@ 10
doll 10
wed@@ 10
6 10
harv@@ 10
telli@@ 10
sy@@ 10
adv@@ 10
paint@@ 10
prin@@ 10
good@@ 10
vide 10
spe@@ 10
rema@@ 10
ton@@ 10
puni@@ 10
nor 10
thin 10
convin@@ 10
effor@@ 10
progra@@ 10
appo@@ 10
nei@@ 10
he@@ 10
gh@@ 10
recogni@@ 10
idi@@ 9
stin@@ 9
ignor@@ 9
comm@@ 9
yel@@ 9
ang 9
auth@@ 9
evi@@ 9
scar@@ 9
bul@@ 9
9 9
confi@@ 9
fle@@ 9
low@@ 9
oo 9
note@@ 9
roa@@ 9
sandwi@@ 9
requi@@ 9
explo@@ 9
eye@@ 9
citi@@ 9
frighten@@ 9
bath@@ 9
9@@ 9
six@@ 9
sna@@ 9
occasion@@ 9
tran@@ 9
ph 9
interest 9
hung 9
gran@@ 9
tempera@@ 9
person@@ 9
soon@@ 9
ssi@@ 9
20 9
custo@@ 9
cover 9
sub@@ 9
invol@@ 9
twen@@ 9
materi@@ 9
produ@@ 9
goodby@@ 8
defini@@ 8
shar@@ 8
curi@@ 8
quick 8
shake 8
drow@@ 8
und@@ 8
fun@@ 8
rob@@ 8
canadi@@ 8
avoi@@ 8
sur@@ 8
rest@@ 8
rescu@@ 8
ener@@ 8
oc@@ 8
disappo@@ 8
master@@ 8
resemb@@ 8
russi@@ 8
cru@@ 8
teri@@ 8
cele@@ 8
gent 8
temp@@ 8
ta 8
twel@@ 8
ma 8
teen@@ 8
spani@@ 8
conveni@@ 8
schedu@@ 8
yar@@ 8
joh@@ 8
major 8
obe 8
profe@@ 8
adverti@@ 8
simi@@ 8
remin@@ 8
condition@@ 8
recor@@ 8
pron@@ 8
pou@@ 8
osa@@ 8
theor@@ 8
2 8
floo@@ 8
passeng@@ 8
cere@@ 8
ff 7
ja@@ 7
zz 7
sof@@ 7
anno@@ 7
logi@@ 7
boo@@ 7
gar 7
emp@@ 7
decei@@ 7
heavi@@ 7
optimi@@ 7
holi@@ 7
ill@@ 7
big@@ 7
vor 7
$ 7
18@@ 7
sla@@ 7
deser@@ 7
coura@@ 7
dia@@ 7
heigh@@ 7
ty-@@ 7
when@@ 7
weal@@ 7
xi@@ 7
beau@@ 7
appreci@@ 7
blan@@ 7
u 7
solu@@ 7
sty@@ 7
equ@@ 7
vac@@ 7
threa@@ 7
compe@@ 7
vari@@ 7
jud@@ 7
16@@ 7
grou@@ 7
seven@@ 7
distur@@ 7
sea 7
acqua@@ 7
inci@@ 7
gover@@ 7
is@@ 7
scen@@ 7
zi@@ 7
master 7
distingui@@ 7
communi@@ 7
lo 6
h 6
7 6
exhau@@ 6
decl@@ 6
rab@@ 6
congratu@@ 6
unfortun@@ 6
swe@@ 6
disapp@@ 6
itali@@ 6
puzz@@ 6
conta@@ 6
wee@@ 6
photo 6
elephan@@ 6
enga@@ 6
shin@@ 6
proper@@ 6
sibl@@ 6
politici@@ 6
pie 6
lincol@@ 6
mail@@ 6
% 6
toi@@ 6
prohibi@@ 6
fea@@ 6
fast@@ 6
vai@@ 6
suggesti@@ 6
nar@@ 6
which@@ 6
dele@@ 6
impre@@ 6
jum@@ 6
pack@@ 6
requ@@ 6
instru@@ 6
mid@@ 6
gro@@ 6
jour@@ 6
tura@@ 6
moon@@ 6
emer@@ 6
sin 6
sear@@ 6
del 6
effe@@ 6
chica@@ 6
twenty-@@ 6
fur@@ 6
critici@@ 6
participa@@ 6
particu@@ 6
eight-@@ 6
safe@@ 6
major@@ 6
determin@@ 6
sul@@ 6
directi@@ 6
them@@ 6
sudden 6
increa@@ 6
influ@@ 6
hi 5
swa@@ 5
ok@@ 5
ser 5
pregn@@ 5
securi@@ 5
cir@@ 5
treat 5
parti@@ 5
kor@@ 5
sco@@ 5
bran@@ 5
anti@@ 5
relie@@ 5
poi@@ 5
1 5
dru@@ 5
typi@@ 5
kid 5
fa 5
mosqui@@ 5
self-@@ 5
mma@@ 5
cab 5
cap 5
destro@@ 5
cigare@@ 5
piani@@ 5
ker@@ 5
wel 5
sensi@@ 5
note 5
yor 5
weap@@ 5
talen@@ 5
treat@@ 5
archi@@ 5
bio@@ 5
docu@@ 5
twin@@ 5
mini@@ 5
apo@@ 5
banan@@ 5
underesti@@ 5
tha@@ 5
quar@@ 5
astoni@@ 5
lev@@ 5
illu@@ 5
peri@@ 5
alco@@ 5
volle@@ 5
origin@@ 5
kilo@@ 5
tra 5
ssion@@ 5
velo@@ 5
charac@@ 5
sau@@ 5
confe@@ 5
coinci@@ 5
octo@@ 5
postp@@ 5
text@@ 5
remark@@ 5
para@@ 5
ambi@@ 5
desi@@ 5
cei@@ 5
wedne@@ 5
calcu@@ 5
co 5
opp@@ 5
rich@@ 5
indu@@ 5
guaran@@ 5
sn@@ 5
ado@@ 5
nago@@ 5
oni@@ 5
suffer@@ 5
pho@@ 5
physi@@ 5
ko@@ 5
issu@@ 5
lum@@ 5
scra@@ 5
cast@@ 5
li 5
inv@@ 5
respon@@ 5
pollu@@ 5
employ@@ 5
interpre@@ 5
nine@@ 5
emo@@ 5
manu@@ 5
gentle@@ 5
appli@@ 5
wre@@ 5
equi@@ 5
weir@@ 4
slow 4
pra@@ 4
thri@@ 4
surren@@ 4
pac@@ 4
dd@@ 4
lad 4
es@@ 4
la 4
cau@@ 4
arabi@@ 4
ambu@@ 4
ex 4
night@@ 4
wra@@ 4
popcor@@ 4
suici@@ 4
stomacha@@ 4
dol@@ 4
abi@@ 4
inclu@@ 4
execu@@ 4
coa@@ 4
ur 4
absor@@ 4
fan 4
twin 4
occu@@ 4
refer@@ 4
fore@@ 4
encoura@@ 4
sen 4
resour@@ 4
princi@@ 4
toma@@ 4
cancel 4
bal@@ 4
diplo@@ 4
inse@@ 4
strea@@ 4
197@@ 4
ess@@ 4
text 4
funer@@ 4
neighbor 4
pass@@ 4
org@@ 4
sym@@ 4
st-@@ 4
well-@@ 4
dire@@ 4
tin 4
guest@@ 4
accomp@@ 4
accompani@@ 4
hair@@ 4
approa@@ 4
mexi@@ 4
gaz@@ 4
redu@@ 4
insur@@ 4
slo@@ 4
subscri@@ 4
develo@@ 4
ten-@@ 4
ku 4
pic 4
activi@@ 4
dow 4
associ@@ 4
sa 4
proce@@ 4
remo@@ 4
part-@@ 4
squ@@ 4
ysi@@ 4
investiga@@ 4
year-@@ 4
kar@@ 4
wa 4
happi@@ 4
sup@@ 4
suspici@@ 4
frequ@@ 4
philoso@@ 4
you@@ 4
dama@@ 4
cab@@ 4
na 4
rou@@ 4
tw@@ 4
micro@@ 4
cher@@ 4
embar@@ 4
scot@@ 4
descri@@ 4
moder@@ 4
tun@@ 4
val@@ 4
touri@@ 4
dedi@@ 4
consu@@ 4
careless@@ 4
tis@@ 4
fanta@@ 3
glu@@ 3
relea@@ 3
horri@@ 3
unbeliev@@ 3
hic@@ 3
sour 3
sob@@ 3
scre@@ 3
tari@@ 3
chop@@ 3
rac@@ 3
vod@@ 3
smoo@@ 3
singapor@@ 3
ug@@ 3
scar 3
spina@@ 3
ligi@@ 3
ai 3
gree 3
careless 3
chil@@ 3
liter@@ 3
discrimin@@ 3
reje@@ 3
ff@@ 3
cur 3
secu@@ 3
spens@@ 3
exhibi@@ 3
nick@@ 3
mm@@ 3
deb@@ 3
quo@@ 3
z 3
nee 3
post@@ 3
tues@@ 3
elbo@@ 3
ki 3
focu@@ 3
suf@@ 3
tin@@ 3
stadi@@ 3
veter@@ 3
sand 3
19 3
star 3
unexpe@@ 3
hypo@@ 3
roman@@ 3
esti@@ 3
dece@@ 3
ex-@@ 3
rog@@ 3
endang@@ 3
myster@@ 3
phe@@ 3
justi@@ 3
horiz@@ 3
ordin@@ 3
exce@@ 3
scho@@ 3
mahj@@ 3
off@@ 3
obli@@ 3
volcan@@ 3
suita@@ 3
cam@@ 3
mai@@ 3
ini@@ 3
robo@@ 3
embas@@ 3
predi@@ 3
mpi@@ 3
repu@@ 3
ku@@ 3
whisp@@ 3
mode@@ 3
res@@ 3
mi 3
empha@@ 3
iz@@ 3
litera@@ 3
febru@@ 3
shake@@ 3
tsun@@ 3
lico@@ 3
web@@ 3
bor 3
identi@@ 3
vita@@ 3
quarre@@ 3
subur@@ 3
centi@@ 3
recomm@@ 3
three-@@ 3
four@@ 3
expecta@@ 3
ban 3
ide@@ 3
conclu@@ 3
lli@@ 3
zea@@ 3
souven@@ 3
olym@@ 3
persu@@ 3
ple@@ 3
luc@@ 3
semb@@ 3
climb@@ 3
sso@@ 3
fle 3
stro@@ 3
pretti@@ 3
honest@@ 3
revol@@ 3
mid 3
volu@@ 3
x-@@ 3
sep@@ 3
ruden@@ 3
mid-@@ 3
tradi@@ 3
crimin@@ 3
concentra@@ 3
unci@@ 3
tool@@ 3
ken@@ 3
envi@@ 3
differ 3
mocra@@ 3
demon@@ 3
fli@@ 3
j 2
edi@@ 2
ugh 2
pop 2
ide 2
ap 2
ab 2
rep@@ 2
fur 2
fan@@ 2
assist 2
by@@ 2
fo 2
app 2
sui@@ 2
im 2
univer@@ 2
fi 2
centra@@ 2
wan 2
tt 2
sol 2
goo@@ 2
loa@@ 2
desp@@ 2
ym@@ 2
les@@ 2
ba 2
su 2
4 2
row@@ 2
am@@ 2
brief@@ 2
ym 2
vio@@ 2
mar 2
af 2
cancel@@ 2
cta@@ 2
base 2
mo 2
ris@@ 2
cast 2
ama 2
dar 2
min 2
cere 2
sm 2
partici@@ 2
ene 2
var@@ 2
mel@@ 2
gent@@ 2
ra 2
adi@@ 2
condition 2
16 2
chi 2
ig@@ 2
tem 2
contin@@ 2
jun@@ 2
sour@@ 2
pos@@ 2
load@@ 2
mel 2
green@@ 2
impor@@ 2
pha@@ 2
ga 2
fel 2
ghten 1
bi 1
18 1
bli@@ 1
crow 1
gen 1
thou 1
lla@@ 1
ri 1
arre 1
trans@@ 1
spon@@ 1
ol 1
emb@@ 1
gni@@ 1
pa 1
tax 1
import 1
ja 1
si 1
timi@@ 1
dist@@ 1
ho 1
dd 1
kin 1
sist 1
bra 1
ari 1
sp 1
humi@@ 1
sle 1
pur 1
pack 1
reme 1
ado 1
gentle 1
ski 1
suffer 1
flu 1
umb 1
di 1
wle@@ 1
avo@@ 1
intern@@ 1
grand 1
gramma@@ 1
shu 1
deli 1
ac 1
plo@@ 1
inter 1
phan 1
cel 1
tool 1
kilo 1
conv@@ 1
guar@@ 1
roman 1
sso 1
loo 1
nece@@ 1
fortun@@ 1
aw 1
tici@@ 1
frighten 1
lea 1
ita 1
inj@@ 1
earth@@ 1
san 1
sco 1
mur 1
mag@@ 1
scri@@ 1
liqu@@ 1
poll@@ 1
tex@@ 1
phan@@ 1
lon 1
ef@@ 1
head@@ 1
oun 1
neigh@@ 1
oni 1
q 1
?@@ 1
load 1
ingui@@ 1
mis 1
e-@@ 1
ghten@@ 1
conven@@ 1
reci@@ 1
+@@ 1
+ 1
del@@ 1
gn@@ 1
f-@@ 1
ko 1
ron 1
ro 1
ou 1
phi@@ 1
